[PAD]
[UNK]
[CLS]
[SEP]
[MASK]
!
"
#
%
&
'
(
)
*
+
,
-
.
/
0
1
2
3
4
5
6
7
8
9
:
;
<
=
>
?
[
]
a
b
c
d
e
f
g
h
i
j
k
l
m
n
o
p
q
r
s
t
u
v
w
x
y
z
~
·
‘
’
“
”
…
↑
→
▲
△
▶
◆
◇
★
【
】
㈜
㎜
㎞
㎡
中
文
美
가
각
간
갈
감
갑
값
갔
강
갖
같
개
객
갤
거
걱
건
걷
걸
검
겁
것
게
겐
겠
겨
격
겪
견
결
겸
겹
겼
경
계
고
곡
곤
곧
골
곳
공
과
곽
관
괄
광
괜
괴
굉
교
구
국
군
굳
굴
굿
궁
권
궐
귀
규
균
그
극
근
글
금
급
긍
기
긴
길
김
깃
깊
까
깔
깜
깝
깨
꺼
꺾
껏
께
껴
꼈
꼬
꼭
꼼
꼽
꽃
꾸
꾼
꿀
꿈
꿔
뀌
끄
끈
끊
끌
끔
끝
끼
낄
낌
나
낙
난
날
남
납
났
낭
낮
내
낸
낼
냈
냉
냐
냥
너
널
넓
넘
넣
네
넥
넷
녀
녁
년
념
노
녹
논
놀
농
높
놓
놨
뇌
누
눈
눔
눠
뉴
느
는
늘
능
늦
니
닉
닌
닐
님
닛
닝
다
닥
단
닫
달
닭
담
답
닷
당
대
댄
댓
더
덕
던
덜
덤
덧
데
덴
델
도
독
돈
돋
돌
돕
동
돼
됐
되
된
될
됨
두
둔
둘
둥
뒀
뒤
뒷
듀
드
득
든
듣
들
듬
듭
듯
등
디
딘
딜
딩
따
딱
딸
땅
때
떠
떡
떤
떨
떻
떼
또
똑
뚜
뛰
뜨
뜻
띄
띠
라
락
란
랄
람
랍
랐
랑
래
랙
랜
램
랩
랫
랭
략
량
러
럭
런
럴
럼
럽
렀
렇
레
렉
렌
렛
려
력
련
렬
렴
렵
렸
령
례
로
록
론
롤
롬
롭
롯
롱
뢰
료
룡
루
룩
룬
룰
룸
룹
뤄
류
륙
률
르
른
를
름
릉
리
릭
린
릴
림
립
릿
링
마
막
만
많
말
맑
맛
망
맞
맡
매
맥
맨
맹
맺
머
먹
먼
멀
멈
멋
메
멕
멘
멜
멤
며
면
멸
명
몇
모
목
몬
몰
몸
못
몽
묘
무
묵
묶
문
묻
물
뭐
뮤
므
미
믹
민
믿
밀
밍
및
밑
바
박
밖
반
받
발
밝
밟
밤
밥
방
밭
배
백
밴
밸
뱅
버
벅
번
벌
범
법
벗
베
벤
벨
벼
벽
변
별
병
보
복
본
볼
봄
봇
봉
봐
봤
부
북
분
불
붕
붙
뷔
뷰
브
븐
블
비
빅
빈
빌
빗
빙
빚
빛
빠
빨
빵
빼
뽐
뽑
뿌
뿐
쁘
쁜
쁨
사
삭
산
살
삶
삼
상
새
색
샌
샘
생
샤
샷
서
석
선
설
섬
섭
섯
섰
성
세
섹
센
셀
셈
셉
셋
셔
션
셜
셨
셰
소
속
손
솔
송
쇄
쇼
숍
수
숙
순
술
숨
숲
쉬
쉽
슈
스
슨
슬
슴
습
슷
승
시
식
신
실
심
십
싱
싶
싸
싼
쌀
쌍
쌓
써
썼
쏘
쏟
쏠
쓰
쓴
쓸
씀
씨
씩
씬
아
악
안
앉
않
알
암
압
았
앙
앞
애
액
앤
앨
앱
야
약
얀
양
얘
어
억
언
얻
얼
엄
업
없
엇
었
에
엑
엔
엘
엠
여
역
연
열
염
였
영
옆
예
옛
오
옥
온
올
옮
옵
옷
옹
와
완
왔
왕
왜
외
요
욕
용
우
욱
운
울
움
웃
웅
워
원
월
웠
웨
웰
웹
위
윈
윌
유
육
윤
율
융
으
은
을
음
읍
응
의
이
익
인
일
읽
잃
임
입
잇
있
잉
잊
자
작
잔
잘
잠
잡
장
재
쟁
저
적
전
절
젊
점
접
정
제
젝
젠
젤
져
졌
조
족
존
졸
좀
좁
종
좋
좌
죄
죠
주
죽
준
줄
중
줘
줬
쥐
즈
즉
즌
즐
즘
증
지
직
진
질
짐
집
짓
징
짜
짝
짧
째
쪽
쯤
찌
찍
차
착
찬
찮
찰
참
창
찾
채
책
챔
챙
처
척
천
철
첨
첩
첫
청
체
쳐
쳤
초
촉
촌
촛
총
촬
최
추
축
춘
출
춤
충
춰
췄
취
츠
측
층
치
칙
친
칠
침
칭
카
칸
칼
캐
캔
캠
캡
커
컨
컬
컴
컵
컷
컸
케
켈
켓
켜
켰
코
콘
콜
콤
콩
쾌
쿄
쿠
쿨
쿼
퀴
큐
크
큰
클
큼
키
킨
킬
킷
킹
타
탁
탄
탈
탐
탑
탓
탕
태
택
탠
탱
터
턱
턴
털
텀
테
텍
텐
텔
템
토
톡
톤
톱
통
퇴
투
툰
튜
트
특
튼
틀
티
틱
틴
틸
팀
팅
파
팎
판
팔
팝
팡
패
팩
팬
팽
퍼
펀
페
펙
펜
펴
편
펼
평
폐
포
폭
폰
폴
폼
표
푸
풀
품
풍
퓨
프
픈
플
피
픽
핀
필
핑
하
학
한
할
함
합
핫
항
해
핵
핸
했
행
향
허
헌
험
헤
헨
헬
혀
혁
현
혈
혐
협
혔
형
혜
호
혹
혼
홀
홈
홍
화
확
환
활
황
회
획
횡
효
후
훈
훌
훨
훼
휘
휴
흉
흐
흑
흔
흘
흡
흥
희
히
힌
힐
힘
##h
##i
##k
##a
##n
##d
##e
##v
##l
##o
##p
##m
##t
##0
##1
##8
##4
##웅
##7
##2
##5
##북
##리
##송
##읍
##r
##s
##사
##바
##c
##g
##f
##z
##용
##w
##마
##고
##상
##수
##6
##그
##b
##u
##y
##3
##9
##국
##문
##터
##스
##쿠
##학
##기
##술
##진
##흥
##금
##하
##필
##연
##커
##주
##쳐
##서
##절
##순
##천
##홍
##범
##제
##호
##오
##는
##경
##인
##보
##다
##컴
##동
##복
##암
##산
##업
##법
##름
##이
##며
##야
##코
##섬
##태
##추
##전
##j
##장
##x
##힐
##여
##먼
##에
##결
##과
##베
##라
##내
##간
##싱
##무
##저
##은
##크
##위
##회
##잘
##거
##렸
##자
##노
##반
##닥
##칠
##디
##재
##어
##져
##요
##시
##나
##니
##운
##철
##우
##등
##생
##딜
##남
##양
##물
##까
##대
##럼
##귀
##충
##력
##광
##현
##비
##식
##립
##공
##르
##카
##유
##헌
##돌
##아
##봐
##택
##찰
##으
##레
##부
##련
##런
##던
##작
##빈
##히
##들
##가
##세
##테
##트
##를
##잡
##발
##백
##득
##러
##표
##슨
##희
##탕
##룬
##로
##청
##원
##성
##분
##계
##효
##선
##존
##닷
##q
##불
##액
##안
##파
##녀
##별
##영
##격
##석
##봉
##꼬
##냉
##길
##할
##곡
##믹
##도
##념
##슬
##중
##완
##살
##창
##례
##탈
##벌
##려
##렌
##친
##모
##외
##속
##조
##린
##실
##행
##지
##낭
##한
##독
##브
##릿
##타
##정
##민
##험
##차
##명
##빠
##즈
##렬
##데
##말
##채
##본
##율
##워
##링
##일
##극
##뮤
##컬
##푸
##소
##심
##록
##담
##겨
##근
##십
##페
##단
##끝
##환
##센
##드
##츠
##숙
##게
##팬
##형
##관
##교
##참
##합
##총
##화
##면
##손
##랄
##옷
##덕
##쇄
##섭
##규
##열
##알
##머
##혜
##턱
##루
##망
##울
##풍
##년
##폴
##류
##편
##둥
##릴
##겐
##착
##미
##람
##였
##짐
##벨
##탄
##출
##키
##혈
##강
##음
##옥
##구
##맞
##춤
##군
##섰
##럴
##팽
##혀
##품
##량
##엔
##맥
##빗
##색
##접
##죽
##염
##포
##약
##활
##건
##글
##프
##랜
##준
##종
##평
##징
##래
##킹
##달
##윤
##통
##첩
##향
##악
##항
##갈
##띠
##눠
##해
##콜
##의
##급
##임
##병
##란
##플
##션
##둔
##펜
##힌
##틴
##윈
##봄
##점
##견
##피
##휘
##농
##든
##괴
##판
##꾼
##룩
##집
##투
##익
##적
##락
##랍
##허
##온
##곤
##셔
##치
##증
##티
##킨
##튼
##질
##했
##토
##첨
##죄
##끔
##닉
##협
##을
##걱
##축
##료
##만
##률
##찬
##배
##검
##퍼
##헤
##애
##매
##림
##더
##직
##승
##설
##월
##개
##륙
##팩
##버
##당
##역
##붙
##신
##벽
##되
##응
##령
##랑
##틀
##침
##놀
##냈
##몽
##탑
##욱
##균
##랙
##큰
##샤
##겸
##털
##체
##렉
##뚜
##권
##룹
##웨
##없
##네
##난
##졌
##탁
##춘
##번
##후
##잉
##두
##새
##메
##획
##감
##골
##칼
##삼
##켈
##언
##촌
##예
##젠
##늘
##랭
##와
##왕
##앤
##갑
##론
##셈
##취
##너
##틱
##흔
##홀
##→
##쏘
##폐
##느
##랫
##궁
##습
##른
##럽
##퓨
##박
##묵
##잔
##훈
##롭
##답
##딩
##납
##팔
##욕
##족
##빙
##묘
##폼
##방
##젝
##딘
##초
##릭
##각
##겹
##끼
##께
##팀
##톤
##클
##굴
##탱
##맛
##탐
##닝
##밀
##눈
##었
##쥐
##춰
##쟁
##훌
##텐
##톡
##웰
##흐
##논
##룸
##얀
##넷
##릉
##입
##김
##꺼
##움
##멘
##꿀
##황
##케
##젤
##휴
##누
##얼
##처
##빅
##뤄
##꾸
##먹
##씨
##촉
##퀴
##날
##턴
##꼭
##칙
##혔
##능
##뉴
##핵
##쉽
##샘
##빌
##혁
##긴
##변
##책
##끈
##블
##잇
##틸
##함
##목
##섯
##닌
##밤
##헬
##켓
##따
##널
##떨
##몬
##뒤
##롬
##겼
##뿐
##밥
##깔
##볼
##섹
##탠
##큐
##올
##쉬
##캔
##최
##낙
##즐
##델
##낸
##찍
##셜
##슈
##엘
##콘
##듭
##랐
##떡
##흡
##딸
##패
##둘
##핀
##칸
##막
##객
##낼
##덴
##뷔
##템
##렛
##솔
##뷰
##육
##잠
##찮
##삭
##깨
##땅
##쳤
##셰
##럭
##쓰
##못
##멜
##렴
##닛
##켜
##뢰
##넥
##받
##짜
##압
##겠
##싸
##녹
##났
##혼
##융
##룡
##엠
##웠
##얘
##폭
##벼
##빵
##맨
##돈
##층
##밍
##킬
##엄
##앙
##칭
##쓴
##빨
##좀
##킷
##옹
##벤
##텔
##척
##텍
##멀
##롱
##▲
##롤
##뜨
##값
##곽
##몰
##것
##봇
##졸
##멈
##팡
##툰
##특
##덜
##펙
##넘
##놨
##굉
##쌓
##셀
##팅
##걸
##닐
##괄
##놓
##굿
##좌
##뜻
##떼
##붕
##힘
##셨
##캐
##풀
##쾌
##빚
##큼
##쿄
##씬
##즘
##왔
##콩
##옵
##껴
##끄
##덤
##쓸
##컵
##짝
##텀
##돼
##듬
##슴
##뛰
##쪽
##핑
##쁘
##븐
##셉
##맹
##뿌
##쇼
##확
##깝
##컷
##쿨
##닭
##혹
##갔
##찌
##님
##깃
##웃
##멸
##같
##폰
##펀
##곳
##됨
##홈
##벗
##듀
##억
##렵
##셋
##냐
##탓
##꽃
##튜
##줄
##써
##측
##낄
##빛
##랩
##롯
##꿔
##△
##긍
##넣
##콤
##렇
##램
##쁨
##략
##딱
##때
##껏
##벅
##숲
##룰
##돋
##꿈
##꼈
##있
##캡
##밭
##된
##몸
##캠
##퇴
##샷
##씀
##즉
##숍
##썼
##므
##궐
##꼽
##겁
##앉
##짓
##컨
##줘
##픈
##녁
##밑
##쌍
##뱅
##밸
##챙
##핫
##될
##았
##끌
##뇌
##렀
##쯤
##갤
##핸
##윌
##췄
##멕
##◆
##픽
##댄
##닫
##엇
##않
##★
##갖
##맑
##흘
##엑
##똑
##흑
##낌
##또
##눔
##높
##혐
##톱
##째
##켰
##냥
##헨
##깜
##멋
##쌀
##듯
##즌
##죠
##밖
##샌
##넓
##밴
##봤
##떠
##촬
##맡
##숨
##빼
##쿼
##슷
##낮
##꼼
##뒷
##옛
##횡
##흉
##깊
##촛
##뽑
##묻
##곧
##↑
##찾
##옮
##뀌
##◇
##늦
##펴
##훼
##됐
##앨
##뒀
##줬
##떻
##밟
##팝
##웹
##쁜
##㈜
##많
##앞
##싼
##챔
##싶
##좁
##꺾
##씩
##왜
##댓
##앱
##듣
##덧
##뭐
##첫
##옆
##떤
##▶
##쏠
##팎
##걷
##좋
##젊
##㎜
##㎡
##삶
##밝
##돕
##맺
##멤
##및
##띄
##읽
##훨
##㎞
##잊
##끊
##묶
##짧
##쏟
##몇
##펼
이름
으로
에서
##00
한다
20
지난
서울
까지
밝혔
다고
201
면서
10
에게
된다
대한
위해
부터
사업
한국
19
통해
다는
기자
지만
시장
라고
대표
이날
지역
지원
위원
대해
이번
기업
경기
관련
##000
정부
진행
11
함께
시간
의원
미국
12
##통령
관계
대통령
보다
가능
투자
교육
위한
라는
국민
지난해
라며
30
이라
##로나
코로나
우리
중국
계획
이라고
조사
도록
따르
이후
예정
경우
프로
아니
##비스
올해
15
금융
이어
경제
국내
대상
기술
개발
서비스
기록
해야
연구
후보
사회
문제
운영
상황
따라
##시스
##니다
때문
산업
사람
현재
국회
민주
오후
관계자
뉴스
시작
관리
뉴시스
최근
아이
필요
13
는데
기준
결과
경찰
대비
공개
정책
세계
##스트
사용
설명
삼성
18
14
추진
위원회
25
증가
다양
평가
발생
이상
기관
제공
가장
발표
규모
생각
제품
16
특히
문화
정보
판매
자신
전문
활동
거래
모두
참여
국가
그러
센터
한편
17
오전
확대
결정
방송
바이
기대
상승
일본
확인
사실
장관
감독
만들
대학
추가
업체
안전
최고
회의
전망
24
달러
200
성장
확진
21
스타
이용
검찰
다른
수사
피해
한다고
과정
기간
##랜드
는다
행사
고객
22
혐의
전국
시설
강화
선거
현대
사이
정치
##레이
회장
나타
은행
영화
광주
그룹
50
환경
예상
강조
23
개선
100
##시아
가격
모습
이나
실시
##운데
내용
국제
열린
민주당
##지만
회사
가운데
주장
부산
위원장
도시
학교
마련
27
하지만
상품
분기
감염
선수
다시
매출
28
사건
포함
검사
활용
새로
26
수준
으며
앞서
##인다
해외
공동
최대
시민
준비
현장
미래
하나
지적
특별
분석
당시
구성
입장
영업
지속
##그램
지방
분야
시즌
현지
개최
여성
출시
29
선정
프로그램
대회
202
주요
협력
소비
해당
동안
글로
방문
##러스
계약
생산
게임
개월
북한
모든
경쟁
시스
##이스
기존
글로벌
lg
##마트
전했
하락
sk
거나
알려
중앙
직접
업무
주택
보험
자동
일부
인터
개인
40
생활
한다는
새로운
병원
##부터
행정
종합
중심
배우
습니다
또한
인사
정도
적용
자리
으면
어려
시스템
지수
통신
영향
전체
경영
없이
브랜드
데이
만큼
요구
단체
사랑
제주
증권
가족
학생
들어
선보
다음
이사
지금
31
처음
노력
발전
##으며
관심
조치
인천
대책
##리아
유지
건강
참석
감사
보이
가지
제도
의견
##럼프
상태
각각
신청
단계
우려
혁신
감소
트럼프
교수
해서
##인트
상대
재판
많이
관광
코스
사고
논의
스마트
지난달
전략
처럼
tv
의료
중요
효과
주민
kb
내년
업계
확보
책임
##전자
본부
이익
노동
구조
공급
성공
대응
롯데
수출
전년
예산
금리
비롯
제작
적극
건설
대해서
역시
직원
보인다
여러
같이
방식
이뤄
그러나
실적
##이트
포인트
통합
방안
합의
보호
시행
출연
판단
마음
환자
집중
부문
이야
계속
소속
수익
자금
복지
외국
##라마
사진
협의
치료
다가
따른
공사
보여
이야기
평균
공식
덧붙
자동차
신규
부분
더욱
그리
자유
설치
중소
연기
교통
##반기
처리
공공
만나
주식
역할
2018
의혹
변화
목표
전자
원내
전문가
지급
일반
덧붙였
도입
차량
##너지
부담
전날
2015
리그
구축
더불
정상
##자리
##대로
2017
60
보도
영상
오늘
2016
이런
기반
가치
개정
누리
##스크
대출
##er
데이터
소비자
대전
자산
카드
시청
실제
는지
모델
##이지
여부
이하
기능
확산
나라
다만
구매
선발
제기
그런
경기도
인상
운동
전환
인정
심사
고려
고용
수요
지지
어린
규제
조정
신고
선택
작품
드라마
공연
연구원
안정
떨어
늘어
위기
아닌
시키
물론
청와
청와대
기획
바이러스
기회
창업
사무
아직
최초
당국
검토
가구
삼성전자
여행
의미
일정
나타났
2014
라이
연속
해결
펀드
드러
##기업
전남
유럽
사망
구속
어떤
다면
공시
최종
디자
비용
##은행
사례
논란
kt
차지
청년
돌아
사장
법원
식품
예방
자료
자체
##대표
전기
못하
35
보유
이유
##무원
우수
소재
항공
##bc
1000
##텐츠
##벤트
이벤트
어서
인기
체험
조성
이미
아파
방역
국정
조직
공간
대구
가입
로부터
보건
요청
2019
활성
승리
기본
못했
제출
알려졌
나온
보였
변호
공정
일자리
##라이
과학
장애
충북
70
울산
반면
성과
작업
본격
5000
장기
시대
전달
##in
진출
부동
참가
나오
에너지
외국인
콘텐츠
방법
아파트
투표
총리
제조
방침
하루
경험
더라
오른
서울시
##바일
반영
위반
비판
기념
또는
나가
##소년
향후
행위
모바일
안타
역사
점검
핵심
협회
원내대표
거리
확정
지정
협상
보고
우선
부동산
강원
##on
제시
##운드
타이
개혁
2020
의장
영국
##린다
프리
촬영
2000
등록
백신
절차
의회
체결
음악
이전
공모
주가
전시
할인
인해
수상
증시
분위
마지
라면
연합
차례
##으나
수도
##림픽
사전
위험
도움
아시아
상당
소득
무대
체계
플랫
근로
제한
디자인
제외
지도
위치
마지막
동시
의사
전화
회복
언론
분위기
어린이
전북
##렇게
공장
사항
여자
시험
법인
공무원
반대
지사
제안
주목
올림픽
너무
담당
범죄
예술
공격
##리스
32
부장
중소기업
대부
조선
무역
정당
재정
인지
중단
에선
##소리
그리고
나왔
어떻
유통
##동안
금지
##전히
평화
희망
먼저
대변
선물
통한
36
##페이지
##진다
80
했으며
소개
홈페이지
민간
방향
사태
앞두
도로
유치
33
회담
##디오
인터넷
로서
여기
스포
불법
##디어
쇼핑
인도
체육
##스터
경남
협약
자원
과거
러시아
결국
##이션
세대
친구
##이크
45
ai
종목
바로
인수
##an
신종
##무리
500
##프라
최저
입니다
진단
설립
기소
질문
인증
대선
발언
공유
수원
높이
바이오
대부분
마을
##or
선고
통화
능력
인력
연결
관한
대형
수석
매우
디지
마감
행복
출신
언급
외교
대로
연출
올라
##ar
자연
어렵
총장
투자자
아울
부족
이제
하이
단지
금액
그래
비율
디지털
규정
발견
위해서
소식
스포츠
대변인
피해자
남자
00
멤버
각종
올랐
변경
채용
목소리
이달
보수
스타일
생명
##ti
##ns
재단
대화
내부
34
접종
코리아
훈련
호텔
수입
혜택
파악
교육청
토론
거쳐
비해
변호사
누구
못한
상장
모집
2013
연금
매장
한화
오픈
라인
표현
나선
##페인
집행
아울러
매수
##프트
어야
피부
비교
##무부
근무
광고
소송
찾아
통과
보장
이해
시기
프로젝
앨범
##거리
원장
##러운
청소년
홍보
경쟁력
199
반응
법안
청주
공항
접수
구체
대신
그동안
##카오
어떻게
결혼
프로젝트
남성
아동
이끌
마무리
임대
선언
분양
주제
##레스
지분
예비
공원
##bs
월드
추천
마다
뉴욕
300
나섰
감염증
38
우승
소방
3000
해양
열리
남북
취업
수행
스마트폰
인근
방지
비중
내려
투입
완화
국방
부정
해도
달리
노조
고민
과제
주도
연장
소통
도전
캐릭
자치
독일
37
임금
법률
목적
달성
캐릭터
국토
주변
야당
카카오
판정
매력
형사
##란다
상담
인터뷰
인한
현실
가수
촉구
재산
마스크
##케팅
55
음식
##어나
청구
작가
재난
마케팅
여야
동기
인식
스토
2012
어려운
##al
가정
전반
채널
축제
차이
속도
정신
##st
충분
두산
실장
프랑
차원
장비
코스피
패션
90
심리
운용
##주의
어요
등장
반도
##ct
세종
플레이
데뷔
회원
##이드
강력
지구
바란다
홈런
##en
국립
인데
시도
##회장
등급
강남
##총리
느냐
블랙
얘기
연계
역량
집계
sns
으로부터
전통
무엇
신용
어느
대학교
기초
시리
##담회
65
창출
52
39
매출액
육성
다며
회견
편의
가까
여름
만든
반도체
##의원
간담회
충남
지켜
축구
it
고자
##ed
화학
의무
집단
차별
신한
비상
총선
무료
긴급
네이
42
징역
접촉
##한다
이동
서로
기사
상반기
국무
제대로
판사
신뢰
부회장
사이트
기온
업종
출발
설계
세월
나온다
어려움
애플
바탕
48
해소
##ou
하반기
프리미
결제
보안
여론
원인
대법
행동
네트
더라도
프랑스
효율
페이스
매각
전해
##머니
대체
유가
세트
43
완료
화재
지하
시리즈
농업
넘어
보내
##스코
41
아야
사과
버스
완성
특정
여전히
주년
보고서
나갈
이렇게
야구
취소
스럽
본인
자격
자기
형태
응답
사업자
처분
으나
부상
합니다
수수
인권
지나
기여
정의
개정안
메시
당선
##다는
으로서
려는
자본
전용
다이
누적
나서
판결
스트
이닝
확실
화장
44
##서관
미세
##항공
kbs
약속
자세
양성
특징
##50
케이
교사
부진
건축
가량
정확
건물
계열
공감
처벌
##회사
갈등
가진
전주
##직원
49
조금
이어지
주인
정비
바람
현대차
시켜
통상
올리
인구
최선
했으나
51
47
승인
교체
46
기부
긍정
발굴
배치
##학교
특수
조합
매년
제재
당부
계기
정권
돌파
바른
##니스
mbc
소프트
국회의원
의지
노래
꾸준
정말
커피
아들
##스타
##스로
추정
부부
시점
라도
단독
집회
법무부
엔터
외부
학습
별도
조건
거주
이메
순위
이메일
사법
##ia
만족
개편
관객
벤처
제약
사상
대사
##es
##환경
##사자
th
허용
이르
움직
번호
이러
발행
브리
역대
내놓
공직
조기
체제
##워크
출마
아침
브라
자율
출전
빠르
차관
75
채권
임시
주문
주주
메시지
코스닥
지자
요금
홍콩
맞춤
오르
플러스
동의
인가
근로자
취지
53
줄어
##요일
cj
밖에
유명
격리
메이
향상
투수
파트
여당
페이스북
그린
스스로
베트
올렸
알리
인물
예고
작성
신속
##없이
스러운
대우
복합
베트남
4000
인프라
허가
##우스
##루션
59
시절
맞춰
국당
얼마
이용자
##산물
그렇
불과
보증
재판부
54
56
거부
환율
공단
노인
마이
레이
기구
컬러
##ic
청문
##플레이
부모
초등
베이
득점
골프
지자체
인공
모르
성적
려고
뛰어
##우드
고등
국장
주말
독립
##it
얼굴
2011
세상
선임
영장
교육부
대중
친환경
인하
디스
네이버
경북
##먼지
그대로
시켰
힘들
프리미엄
존재
벌어
직장
미사
기억
잘못
미세먼지
##아들
위안
부품
##at
카페
활약
부과
보상
네트워크
불안
전력
증거
기기
198
57
마쳤
농협
최소
일상
배당
밝혀
확장
감정
캠페인
투어
기상
손실
펼쳐
개국
원칙
의심
비대
내린
연간
입주
새롭
전쟁
정기
아무
출범
특허
주의
텔레
##학생
을까
극복
다르
웃음
선보이
클라
##ec
솔루션
헌법
58
걱정
과장
메뉴
물량
비슷
기대감
미디어
부처
##공사
소리
지표
2021
##om
##반도
전해졌
심의
고위
6000
주거
##피스
갤럭
눈길
취임
갤럭시
동물
밝힌
지키
개소
겨울
슈퍼
##ot
협의회
바라
트리
실패
휴대
수술
주간
##버지
품질
64
총회
자녀
##화점
블록
거래일
이른
취약
범위
8000
지시
전면
밝히
안보
매체
정규
생태
마치
다수
특성
준다
느낌
연구소
심각
전하
불편
접근
eu
부인
이탈
한반도
##터리
교류
##서트
실질
수립
공인
장소
스타트
걸쳐
안내
거래소
여러분
순간
실제로
부지
전일
예능
이루
즐길
가져
학년
철저
보조
시각
근거
당초
강세
개봉
군사
노선
재무
공약
상임
sbs
주로
청장
테크
음성
임직원
오히
이행
##30
오히려
61
이내
라운드
72
가맹
종료
위협
##드시
미사일
반드시
대기
돼야
임명
2010
로운
통계
수업
합병
재개
탄핵
임상
62
미술
취득
고발
받아들
콘서트
착용
##회의
복귀
검증
이사장
예약
개막
실점
북미
소유
대법원
응원
현금
부여
7000
불가
##리카
카메
해석
배경
폐지
요인
의결
실현
내리
##카드
재미
회계
pc
시티
연말
에스
전혀
인원
기다
이뤄지
봉사
66
만드
단순
언제
트렌
주행
상승세
구입
진입
늘어난
직후
증상
84
강한
구간
다소
시위
흐름
철도
이란
소장
으로써
특검
어디
매매
ce
경선
나이
63
시범
줄이
물질
호흡
변동
수주
백화점
85
차단
강원도
##si
타자
유입
달라
예측
동부
##주시
신설
68
브리핑
kbo
진료
관람
제일
동일
##et
유출
비즈
신문
감안
67
경고
작년
직무
미니
뱅크
보통
수용
미만
군수
##이터
바다
이틀
nh
후원
으면서
거듭
현상
드리
남부
주관
모임
수수료
불구
팀장
형성
명예
초기
혁명
유일
카메라
##증권
꾸준히
선보였
양국
평창
진정
인재
들어가
지법
자랑
99
고속
축소
지원금
현안
향해
시청자
배출
##웨이
수소
학원
시킨
크리스
본사
질환
공천
파크
포럼
현황
매입
gs
졸업
지주
청문회
기아
가동
영역
in
투명
##ing
부총리
##아가
편성
빠른
통일
가상
무기
##다고
균형
아버지
동반
클럽
제주도
질병
##머지
성남
허위
##거운
상위
관측
주차
나머지
뮤직
아이템
분명
악화
진술
출석
95
으니
내렸
가스
추석
조작
학부
국방부
법정
한다면
남편
캠프
반발
구청
관광객
##ol
대행
강제
아서
##공업
늘어나
계열사
자는
##이익
불리
키로
ip
고양
그램
협업
150
시상
불러
측면
인간
둘러
초청
실시간
##티브
클라우드
경찰청
엄마
말씀
텔레콤
케어
69
클래
선두
뮤지
지점
디스플레이
통제
농가
운전
토지
9000
장치
장면
후반
단기
내일
미치
연휴
포스코
총괄
아내
호소
교회
71
만난
계층
적자
점수
부대
유니
살펴
km
##이즈
초반
긴장
평소
표준
명령
스타트업
합동
구역
택시
화폐
대상자
고소
모아
연대
세요
성명
##리오
##니아
##지능
인공지능
월드컵
##is
관세
범행
본다
화보
실천
설비
##수록
날씨
아름
##세대
오랜
전월
절반
에어
단속
타임
개별
유로
the
##ac
조달
선박
순이익
##사장
스테
is
74
nc
상호
라면서
배터리
나와
광역
타이어
구단
상생
메르
작용
완벽
다운
##튜브
유튜브
성폭
대리
부채
충격
파트너
그래서
답변
합리
소화
파이
면세
설정
지검
400
비리
폭발
노동자
테러
성능
유리
나타나
나눔
거의
주력
폭행
챔피
충분히
유도
##re
물류
비난
호주
사유
73
##리어
화장품
시선
구글
77
선사
물가
매일
권리
유엔
리더
머리
폭력
의해
높였
압박
ceo
신경
##의자
이슈
서류
실무
해운
태양
을지
그런데
사기
떠나
##가지
그녀
권한
박스
일으
사퇴
직업
영어
비전
신임
요소
##널드
배달
화제
추세
손해
분류
대만
점유
그것
기타
##el
급여
즐기
여건
컨설
아프
끌어
상환
소감
선도
협조
교육감
스토리
춘천
입법
징계
자아
노사
사망자
여의
경찰서
필수
단위
##라스
##데이
지상
단일
단장
시킬
##니어
##as
민원
발사
풀이
st
2009
청약
나타냈
중공업
면적
부당
품목
상공
현행
비밀
국내외
자회사
려면
도널드
분리
동원
해상
선보인다
아쉬
연락
##관리
이외
열린다
##리티
해제
비즈니스
중간
연방
기상청
임원
2008
입국
가졌
석유
사라
따뜻
지식
베스트
압수
추경
마리
그려
##웨어
78
공기
의식
##id
달하
대폭
인생
자문
주인공
계좌
76
느끼
##키지
운행
방해
그간
기금
아래
패키지
증정
이스
##메달
페이
세력
##다른
에이
강릉
연수
주최
드린다
그렇게
살인
##버스
펼치
토론회
권고
흔들
중대
서울대
체육관
포기
경력
##위원
저축
이자
승부
급증
사실상
돌입
##pg
벌금
머니
성분
통보
전부
나선다
##뮤니
폐쇄
정체
커뮤니
부사장
연습
적절
냐는
명회
도서관
주자
출입
레드
마켓
의약
모니
로봇
##조합
82
세금
떨어지
트렌드
kia
가을
부탁
##ig
ft
고급
타점
대북
기울
건립
도착
호남
사안
희생
치료제
갖춘
컨설팅
구현
유기
드러냈
기계
면접
타이틀
전형
분쟁
수급
##리스트
유치원
개입
##am
탑재
광장
니까
된다는
##oc
폐기
담보
ap
만기
당신
급등
궁금
연령
공화
일단
##프라인
지도부
아마
제고
전원
첨단
침해
소환
재생
가맹점
적발
용인
오래
동해
임기
선호
산림
항소
##tion
채택
가입자
담긴
##권자
전기차
차트
북부
88
79
아트
정의당
##심히
획득
대학생
발매
여의도
81
식사
모니터
만남
푸드
수비
실내
아이디어
주일
민생
결승
합격
된다고
전세
전개
어도
요리
약세
초과
합류
중구
대해선
맞이
##워드
인정받
반복
아름다
시트
라디오
비행
소녀
고등학교
벌이
##70
문자
수정
어머니
도쿄
유사
가계
제조업
뷰티
개방
지연
당일
결합
라이프
지배
부서
트위
비트
청사
당했
저녁
할지
그림
경로
86
협정
학부모
훼손
면세점
동료
검색
빨리
타격
혼자
라이브
그만
는가
증인
##le
선출
얼마나
입찰
잇따
솔로
##건설
노트
지진
볼넷
휴가
식당
됐으며
보완
세부
전담
커지
찬성
게시
바뀌
완전
원유
비서
한미
##총장
충전
지휘
심판
열심히
##디션
상하
조례
이탈리아
지지율
권력
사로
행정부
진흥
감시
표시
나눠
##고인
영입
마이크
##레이드
극장
미리
삼진
프랜
보험료
영화제
##ov
나올
전파
신세
마친
##케이션
92
##op
도내
연예
박람
게재
거론
착수
감성
배제
교과
조국
등판
탄생
상무
##영상
제정
창원
나누
여파
활발
모양
배상
고령
아웃
치킨
의약품
사드
융합
도민
건수
전투
요양
120
지침
결론
한계
마찬
하우스
발급
수단
마찬가지
##우디
박사
##체인
정식
넥센
수능
판매량
새벽
이어졌
정리
트위터
##거래
98
개설
블루
절감
지인
공판
연맹
매도
87
89
리스크
94
행보
해명
su
저희
메이저
제거
##매도
83
스카
오프라인
대주
매치
##cc
나타내
91
블록체인
선제
자주
시사
진실
사로잡
안심
박람회
##수색
당장
##스티
가득
장점
드러났
##리트
회관
당기
음원
압수수색
토대
스튜
강하
동영상
머물
프랜차
프랜차이즈
노출
##소득
연설
시상식
눈물
넘겨
##이너
브라질
##60
움직임
천안
결의
테마
체포
댓글
바꾸
화면
산하
##런스
뮤지컬
대안
어린이집
내수
##os
간편
편리
금호
비디오
실험
600
##물관
로써
유아
앞둔
절대
늘리
종로
정지
다니
##닉스
기재
남녀
##란드
후속
장학
의도
이뤄졌
재료
치열
도와
조언
두기
mc
강의
진다
챔피언
보급
인용
특화
떨어진
자전
실업
선진
컴퓨
지명
비례
떨어졌
화이트
##모션
입증
키움
모았
금감
헬스
사무실
나설
시정
공직자
원자
만약
매니
##나다
화성
가슴
기조
입원
파워
기아차
유동
보관
가까운
찾아가
확충
초대
##사고
도심
pd
프로모션
빠져
의뢰
노후
용품
이어질
일제
지출
답했
엔진
신세계
##라인
참가자
필리
벗어나
화려
드림
진짜
퇴직
따라서
실력
세미
극본
선배
급락
스케
오염
저지
맥주
서초
광주시
외교부
가까이
개헌
포스트
명단
아티
국무총리
흥원
소폭
중점
거짓
동참
불가피
93
박물관
태풍
마크
순환
컴백
서부
최적
교통부
일어
테스트
자사
무상
정원
저렴
내세
취재
자책
스페
증권사
힘든
뇌물
신분
스위
생기
ib
용역
자극
상향
캐나다
싱글
가전
고통
축하
외환
워크
체크
소상
즉시
파견
충청
평생
ict
위주
더블
##il
곳곳
일각
대결
##산업
자전거
cn
명확
완전히
측정
공략
프레
아주
경기장
요건
갖추
한진
영동
공헌
들여
96
우주
격차
당첨
##산시
방탄
촉진
경계
즉각
그쳤
주재
비서관
동아
최순
모색
가로
차기
동력
엑스
와이
원전
나무
의한
본회의
아이폰
97
종사자
##셉트
놀라
##로드
당원
아르
둔화
마트
신입
줄어들
sm
알려진
일시
선생
향한
##비아
백악
실행
여수
스페인
느껴
##di
납부
연승
사업장
지하철
공부
직전
금감원
회동
올린
스토어
중견
##포르
규명
돌려
상업
대주주
사단
내다
사업비
백악관
kg
증명
개념
헤어
2007
im
이것
이곳
총재
구청장
포장
사이버
진상
보냈
부실
강사
개장
방어
파리
##핵화
비핵화
mm
태도
당연
힘입
취하
##지사
소프트웨어
한층
점차
침체
실수
차장
한정
메르스
이른바
건조
펼쳤
##렉션
암호
적합
유형
##가포르
싱가포르
한도
굉장
흑자
풍부
수집
대금
태국
역전
김포
배송
일대
으려
##40
물러
수당
채무
도약
돋보
반박
장르
덕분
항상
모으
항목
로맨
아티스트
이래
철회
분노
콘셉트
명절
##버그
들어간
메이크
충돌
흥행
예산안
스피
연패
##네시아
##른다
음료
오피스
농촌
유저
보조금
성향
리얼
위탁
아카
행진
실태
고교
일환
편의점
진심
개성
tvn
동남
인도네시아
미군
간부
들어갔
전당
코드
환경부
성인
상징
순천
추구
수지
fc
##화문
수영
거뒀
진화
스크
기분
사무총장
내달
공고
중부
스튜디오
쇼핑몰
학과
편안
시내
대처
주기
##od
배정
전장
통신사
##대문
참사
##ay
유력
피의자
문의
투기
ar
운전자
바이든
생존
아요
원하
세미나
핑크
타워
야권
기후
밴드
물품
시가
했었
상품권
실종
노하
파업
소형
이웃
##평균
스파
나아가
교환
랜드
노하우
##80
포항
##20
트랙
동향
커뮤니티
털어
웨이
##소년단
살펴보
컬렉션
##가스
##러리
소셜
방탄소년단
출산
요즘
##그룹
해수
굉장히
대학원
잠정
느낄
연준
지난주
수학
터키
jt
의정
보좌
차질
중고
발휘
로드
신호
혼란
변신
##ts
께서
돼지
상용
조차
선별
못해
음주
유해
##천군
##시코
사정
런던
기다리
올려
뜨거운
용산
적시
면역
차세대
철강
발의
성격
모여
09
하락세
축산
새해
1500
중계
##자기
국감
입학
무죄
컴퓨터
테이
##ad
연봉
버전
이마트
유발
공동체
봐야
회의실
부드
증진
##고기
점포
lh
만났
강남구
넘치
영양
연합회
무리
응급
승점
위축
훨씬
표정
작전
잠재
그때
한국인
##ce
살아
부르
아름다운
자아냈
무선
아이돌
문화재
##너스
교섭
연애
패턴
정착
##단지
민주주의
##스티벌
페스티벌
잠실
일원
250
모니터링
수치
감염병
조절
마저
달한다
전시회
는다는
플래
사무소
문학
회수
가공
담배
이중
신한은행
공제
지도자
##em
tf
혹은
la
##머스
##교육
고정
사령
농도
원활
광화문
특위
재정부
정밀
필리핀
스탠
##로스
목포
제휴
##ps
메이크업
당내
창조
하이닉스
고백
과도
이노
변호인
가이드
어울
줄어든
부천
##마스
동맹
수렴
멕시코
액션
##일리
##리드
af
안건
전공
구분
운항
배럴
어려워
##레인
저작
형식
키우
##주얼
##힌다
열렸
197
준공
##dp
크림
휴식
연료
중동
2022
뛰어난
탄소
출판
##ew
고기
살해
성장세
##단체
서명
쿠폰
대한항공
평택
돌아가
교실
피고인
조회
##시안
재고
##바로
vs
##란히
각자
누가
접촉자
해졌
수여
바르
세포
시너지
살리
드론
##위원회
불거
정례
청원
적정
추첨
신곡
소요
대가
해진
하늘
증자
탑승
고도
상금
표명
jtbc
sp
유행
보육
mou
반려
항공기
시리아
히트
환영
상처
##if
800
예선
##te
중기
앞장
이사회
전무
보낸
아도
개시
ml
국정원
선보인
조명
##ap
불만
클래식
존중
강연
고시
##도로
조항
숙박
적립
사우디
부산시
선거구
et
그럼
한테
##10
평등
소설
휴대폰
돌봄
경상
최신
이혼
승진
매주
투쟁
서구
쏟아
운송
감찰
충족
위생
일어나
보여준
기지
의문
급격
끝난
기술력
##드라마
원주
저장
상상
골드
마약
농산물
##데미
동구
아빠
##친다
입지
구상
선거법
프라이
아카데미
내외
격려
코치
119
수처
##포구
기각
처장
원격
iot
화물
단축
횡령
중도
종이
만날
탄력
스프
추적
공익
경비
권역
명품
스러
신중
신체
관내
여유
##테크
깜짝
교과서
가해
자책점
cm
진보
가속
당한
제목
면제
##퍼런스
태양광
##ng
크기
정무
##시장
거점
할머니
워싱
열정
공정위
보건소
es
이뤄질
세우
과세
포털
공모전
as
진행할
둘러싼
루수
겨냥
학회
설문
##ent
자고
접속
와인
라인업
700
성폭력
금메달
철저히
브렉
아프리카
여객
##퍼스
멀티
통해서
언더
##문화
보일
주차장
중학교
법무
세이
민족
높여
앞선
방위
주어
선보일
포트
안팎
연인
fa
케이블
##ri
타수
2006
vr
전역
소중
자제
노동부
상가
상한
부작
감동
파티
송파
##ow
로스
신인
충주
전라
대거
리조
오브
소위
예금
상관
내다봤
저소득
워싱턴
된다면
옮겨
진영
독자
시세
놀이
계산
사모
유상
미소
수칙
구제
끌어올
고문
아베
종류
서민
바꿔
떠올
홀딩
청정
주체
청소
애니
수리
부양
정통
연극
공학
택배
복구
아시안
알렸
장식
치러
앞세
공포
대체로
동생
##트리
촛불
무슨
건전
구장
급식
알려져
은퇴
근본
세븐
종교
내륙
어제
플랜
국채
수십
클린
ch
극대
##유예
조속
리조트
수많
대외
출장
스카이
끝나
학술
상원
수시
추억
압도
유족
of
사내
센서
사인
재건
온도
##코인
##본부
01
개통
홀딩스
##복지
출자
발효
##다면
현직
비트코인
제작진
끝내
메모
스트레스
추모
##레이션
ic
준수
신선
특별법
##나라
타선
호조
콜라
시급
비정
법조
##임금
패배
부패
08
재해
창작
장학금
도발
외식
특례
심화
코트
구하
마시
당분
알아
버리
물리
복수
트레이
윤리
건의
캠퍼스
위로
세탁
집권
수원시
물건
피하
은데
##릭스
##ls
출근
##키스
뉴딜
보복
gm
다리
##na
면담
맞추
이스라
학기
##사스
플라
거치
연주
동계
분할
벌였
납품
un
담당자
감축
도서
스크린
트로
이스라엘
##피탈
솔직
쓰레
커플
수험
이뤄진
산업단지
무게
신약
체인
텍사스
감각
입점
증대
경위
배포
##리케이션
자영
전수
수습
벌어지
초점
fta
해요
부적
영광
쓰레기
성추
##ve
담겨
sw
국산
유망
편집
##나무
블로
담겼
계정
리스트
원료
갑자기
천연
육아
잇따라
양측
내놨
모은
재배
연동
당분간
청탁
특유
삭제
최다
반전
가리
성추행
최저임금
면허
메인
보인
토크
진로
응시
남용
각국
더니
변수
선전
이모
바닥
남기
##ctv
달했
중개
스티
sh
수색
유세
드러내
당사자
무시
##ip
치매
연관
##규직
용기
프린
순매도
정하
당하
cctv
##90
비정규직
포스
양산
유연
책임자
wh
196
티켓
패널
sc
지목
오바
빠진
전액
자영업
발전소
인턴
연내
페이지
군민
크루
주석
추락
파일
바라보
일방
골든
##바이
수록
문제점
모터
##오프
하향
##베이
각오
##어로
스페셜
유권자
는다고
항소심
곧바로
승객
화상
아쉬움
호기
제천
소외
다녀
그냥
병행
따로
반성
떠오
무려
소독
지위
##먼스
모씨
가시
2005
발주
의류
호응
on
대검
사원
강수
싸움
시원
소지
폭스
창의
작곡
##총액
시가총액
정치인
##케이
뿌리
중립
##스턴
동양
히어로
깊이
무산
댄스
신축
##스트라
출국
미스터
##ea
농구
타율
##tv
180
어르
집행유예
기한
부스
퍼포
수목
퍼포먼스
내역
금품
이기
해군
산불
강점
매니저
유의
공세
간호
bm
농단
미칠
무너
교통사고
활력
##스토
주한
msi
고성
박원
종로구
ms
중순
첫날
오토
원정
당선인
러브
엄청
복잡
청산
간사
##메이션
다채
교원
오바마
##져야
##운전
위안부
김치
##청사
홀로
야외
수산
협박
안양
특혜
하원
##이자
기에
분명히
잠시
인민
패스
김해
디자이너
청춘
랭킹
과연
드레스
해경
귀국
자국
가중
의료진
강행
현역
문서
최우
어깨
서해
정황
주연
자택
##수기
다이어
출동
무사
pr
맞서
재원
고지
달려
가사
상당히
어르신
##바다
단말
쟁점
그리스
설득
가요
110
청주시
공소
##저스
##led
문건
##물산
피아
##평양
복원
학대
자살
늘어났
항공사
므로
시중
##수산
삼성물산
언어
##연합
생긴
괜찮
종시
수강
점점
탈퇴
남겼
아메
빠졌
다우
토트
받아들이
유포
공조
101
나스
케이스
소매
보좌관
카운
폭염
000
지역구
소집
한전
죽음
강렬
동남아
금속
130
인연
대장
경찰관
늘어날
육군
조세
규칙
다행
노동조합
드라이
억제
요금제
메디
부작용
스웨
서버
정규직
민감
미술관
과감
원래
주소
gdp
내정
보전
테일
독특
포착
확률
조심
배려
구성원
임신
국세
그만큼
통장
감독원
선착
보건복지
성폭행
통증
증언
결심
경영자
##미널
함유
##고리
역학
##사업
마주
열차
공방
입사
키트
경매
국면
플로
수상자
긴밀
사립
누리꾼
남양
인테
경신
동작
mb
신년
루타
리드
쌍용
화웨이
고창
2030
선수단
시행령
복무
과일
던지
##센터
관여
내내
##에도
착공
자이
영향력
조합원
타당
영등
빌딩
여권
##어스
국비
##버리
##ra
숨진
창업자
요원
이끄
개척
음식점
최악
기일
가짜
박원순
질의
갖춰
제보
베이징
단행
빠지
일자
성실
보건복지부
사물
전처
유산
인명
##da
못할
지대
시신
로맨스
논문
##아내
발령
애정
인테리어
재직
증가세
부각
레벨
엘리
취급
감면
세웠
이목
섬유
타운
민심
고조
광양
마스터
##dc
##us
##ds
어려울
압력
우위
누군
##제품
법제
동네
타석
궁금증
##셔널
총력
클래스
극단
생겼
웹툰
통산
냉장
부위
후배
시공
소년
야간
털어놨
돌아온
명의
유관
시나
재차
지켜보
모빌
광부
계절
농림
기쁘
##생활
감사원
체감
스타일링
부가
의학
원자력
창립
##베이션
과태
치르
그래도
농장
뒤집
리스
이노베이션
입건
경보
이때
임대료
짜리
멘토
과태료
연다
re
조화
스위스
##어난
평양
유료
드러나
하위
유가족
문구
들어오
꼽힌다
낮추
패스트
세제
탈당
보존
돋보이
그라
스코
코미
유전자
당사
이루어
스틸
추격
표창
줘야
자발
직권
명시
헌재
종전
키즈
##im
그럼에도
에이스
무관
대법관
역임
인천시
간단
투데이
내비
2004
권익
대국
북구
동결
한국은행
공통
to
의존
an
형제
터미널
소수
문체
무한
리더십
제이
us
중국인
법령
죄송
끈다
상임위
커머스
웨어
가르
허리
유공
시인
늘려
노총
모자
힐링
관행
우대
조만
중증
##징금
이송
군산
먹거리
거두
세일
##보드
총액
움직이
그치
결산
할까
우리나라
국민은행
추후
아우
흥국
led
매월
참고
suv
아산
견인
양상
등교
아마존
편입
논평
스킨
국경
신탁
cg
상영
pm
토트넘
실망
오해
높일
운명
아기
세무
광명
플랫폼
단순히
연예인
발간
폐기물
줄여
02
조만간
##동구
식물
간접
기원
프라
예보
아쉽
무인
붙잡
심장
매물
최우선
유죄
흡수
##파이
크리스마스
철학
수혜
경주
캐스
한류
애플리케이션
보험금
협동
라이트
##직자
박차
관람객
위법
손상
거대
색상
이슬
선착순
여지
연이
관해
차익
##태프
스키
예전
아닌가
##더스
대본
##지니어
구호
핀테크
개그
말레
약간
##바지
생계
ec
재발
재미있
탈출
항만
방사
수위
나간
관점
무더
전지
마운드
중앙은행
군인
cnn
고향
분당
용량
응답자
어떠
접목
블룸
유감
번지
gb
산정
구도
##들이
포토
공백
모드
걸리
장착
올바
검거
기념식
그려졌
마당
##트로
2500
ka
전직
소스
여신
대량
탈락
한강
해임
난민
at
이라크
신천
세기
왜곡
주사
슬로
##나이
재킷
해고
국적
##익수
과목
언니
정국
꼽히
철거
도중
재건축
엇갈
헬기
승용
매달
흥미
체력
맞춘
성남시
테이블
신상
순수
나쁨
위성
유효
유진
친화
유예
##서치
허브
입시
상인
청렴
원가
편지
고인
가방
붕괴
03
미팅
목숨
##퍼니
거짓말
생물
##ist
일관
05
장례
거절
조리
무장
지내
신작
의상
세련
부합
전방
시그
호평
고유
직장인
의정부
로이터
##주군
공군
전제
될지
##pga
연상
양사
녹색
결혼식
갖췄
900
지능
자신감
민정
키워드
##금리
오리
##받침
터뜨
##그레이드
업그레이드
독점
취재진
약품
달콤
장사
2002
컴퍼니
##다가
적시타
##ver
컨퍼런스
시나리오
땅볼
학년도
추출
누군가
토록
옵션
나스닥
다이어트
업소
수백
인문
화장실
주당
둘째
모빌리티
넘어섰
여사
간다
넘기
afp
##범죄
bmw
신화
195
애니메이션
크리
오가
내년도
안타까
파괴
수령
레저
행장
캐스팅
##ir
섭취
지향
똑같
파주
나타난
실효
한지
측근
##데이트
수차
112
코너
분산
사흘
최소한
신장
폭탄
상시
ss
업데이트
손잡
감염자
전산
트럭
뒷받침
주류
시설물
유럽연합
앞세워
항의
명칭
리서치
단체장
농어
##eb
독도
1200
위상
탄탄
##ation
##ef
수분
모범
상회
목격
엄격
비하
과시
블룸버그
집값
구름
신천지
비타
정해
아나
고수
사각
애널
레이스
트윈
수차례
떨어져
넷플
넷플릭스
전후
단어
갤러리
분담
사후
도모
질서
걸음
장려
서초구
제어
보강
실리
확신
##ut
느꼈
##르트
즐거
어우
고개
ipo
개관
추산
아세
미얀
초래
타임스
지닌
열릴
etf
황금
그랜드
지부
아끼
140
몰랐
상권
##성장
들이
후보자
제로
플라스
커졌
작동
##ur
고양시
우크
메모리
몰아
상정
언스
cp
정읍
적응
방한
센트
메가
태평양
터치
치유
재활
도청
##리포
골자
예매
바람직
두려
2003
끊임
##가락
이뤄지지
사격
보훈
약식
선진국
닷컴
칭찬
##남도
앞장서
나노
유재
bp
티저
사외
강도
셔서
오프
매진
꼬집
객관
순차
오피스텔
게임즈
해피
대피
배우자
##페이
##슬라
엄중
본선
근절
특강
가질
내주
최상
재학
증세
건축물
맛있
상해
이슬람
어우러
남구
대단
통일부
충실
회생
떠난
발목
응모
인치
##다수
력사
사연
구로
두드
##교통
표결
저자
##나항공
아시아나항공
일까
흘러
you
아이스
##토리
##pl
임무
고리
원심
핸드
재계
그게
나란히
한때
러닝
생산량
국악
먼지
퇴진
동점
도출
우한
oled
이민
계단
부착
재능
화합
감지
##렉스
타입
아무런
깔끔
입소
든지
과기
04
##디아
원고
원작
본회
##래곤
##생명
플라스틱
치즈
진전
한데
해킹
호투
##시간
폴리
##ex
##ag
프로세
너스
##박스
마르
시술
우아
미안
선행
세워
피자
진주
신청서
연세대
중지
대답
넥슨
안방
양호
경영진
논리
월화
해질
불참
##법인
방치
긴장감
수확
워치
체납
풍성
올바른
검진
필드
좋아
구형
살려
받아들여
견제
유공자
포스터
성사
en
몰리
동행
버디
슈팅
교직원
무안
보궐
테슬라
장중
달아
한글
합작
다섯
안성
ny
코인
##관위
민선
카카오톡
단말기
보이스
미얀마
##um
케미
결코
스쿨
이력
닥터
어울리
약물
다짐
관광지
영웅
여주
저감
어스
거친
##덜란드
참석자
네덜란드
가게
##마크
플레이오프
쿠팡
07
괴산
남겨
상속
양자
신혼
벅스
무실
중반
관할
##북도
중재
자진
진도
시크
은행장
캐피탈
성범죄
토로
##ch
챙기
안산
검출
수면
독서
병역
승용차
##전력
만족도
##지대
에코
폭로
든다
커버
없애
영하
##자치
믹스
bo
업자
대립
베이스
재벌
##셔츠
녹화
오름
하이브
휴게
주의보
맞대
원금
어선
자격증
양식
lte
중고차
부자
제네
##먼트
불안감
스웨덴
크로스
출하
나갔
마이너스
벌써
##테일
파운드
##to
for
서면
포르
워크숍
06
인센
인센티브
산업은행
근육
발달
##십자
원천
소음
애널리스트
내릴
##피아
##낸다
도박
아모
명목
##ter
무효
이견
고마
법관
종영
발송
cc
중복
해안
동월
##폴리오
포트폴리오
프리미어
음주운전
대사관
올레
거기
만료
##구역
엔지니어
유학
발탁
셔츠
경품
혈액
돌아오
op
오일
대법원장
강요
실용
##모비스
현대모비스
상자
복지부
일제히
160
막판
창고
접근성
별로
기울이
불펜
키워
아예
##언스
no
인건
당황
al
비타민
보증금
무용
##리포니아
am
##운동
교부
약국
cov
호흡기
##관리본부
강좌
는다면
나쁜
신라
인건비
나주
장난
목사
티셔츠
##조건
노리
해법
눈빛
##다리
용도
뽐냈
강서
만주
질병관리본부
르노
특보
편하
돌아왔
공지
개발자
##un
무실점
대대
터널
ws
가벼
합성
엑소
미흡
경과
여전
저소득층
살균
명백
청취
합격자
보행
db
희생자
당정
완공
잉글
코미디
사이즈
당연히
ex
토요일
##오롱
미션
fr
보고회
##ul
스태프
클린턴
다가오
구리
산학
북측
밀집
공주
시군
연루
게이트
천만
시흥
els
코오롱
원대
쉬운
고서
자마
드릴
위해선
일산
악재
who
해체
예외
워터
비자
공감대
대다수
상대방
부드러운
외모
신차
회원국
가이드라인
산단
불출
외신
포상
한국전력
득표
공영
크루즈
연도
전선
네티
##39
실습
##45
당당
생일
송금
이겨
##성군
##소시
시한
산지
##트롤
ibk
부근
동북
숨지
소득세
컨소시
컨소시엄
파격
##se
##운용
때려
특집
##yp
쓰러
##립니다
아세안
관중
방통
실정
키스
흉기
증액
네티즌
송파구
퍼시
사운드
하이브리드
저하
외무
규탄
끼리
광복
재선
종가
주방
연일
##아라
다루
고가
헤드
평년
냉장고
장악
책정
##공정
공중
원화
마사
꼼꼼
레인
##매매
리모
자산운용
게스트
협동조합
##발전
기증
아닐
##으면
과잉
위촉
일으키
유흥
나아
지지자
경향
공기업
실형
갑작
##니까
팬츠
정확히
우유
퍼시픽
재판소
장벽
lng
용의자
임차
dm
유용
울산시
발열
자마자
소방서
입력
본청
이수
퀴즈
에어컨
선포
##머리
타결
물결
시계
##파크
알파
유인
던졌
블라
에겐
고법
농민
대중교통
공무
##벤션
분열
##35
에서부터
동선
듯이
별다른
무조건
맥스
골목
102
해선
불공정
##린지
블로그
심지
동대문
접어
사임
벌어진
총수
##규모
책임지
부활
다각
조용
##행위
부의
##격수
컨벤션
도지사
사옥
만화
습관
##인드
결단
몰려
타이거
트레
회피
아스
다중
관장
이례
남다른
지나치
국세청
##시설
에프
해수부
자릿
114
일가
꿈꾸
세이브
확실히
중독
무단
화이자
월세
비대위
wsj
패러
엄청난
가하
##고속
##포트
엄정
이적
숨졌
마포구
선보여
행태
떠났
하드
닛케이
감상
방학
수천
와서
관찰
손님
송치
약정
배분
분과
광산
지불
안드
쿼터
소규모
##여금
창당
뒤늦
변이
트래
올라가
전문점
##평가
약자
시달
되돌
도시락
지니
신부
양해
항체
장수
##현실
당과
불어
사각지대
가해자
객실
포괄
우즈
웨딩
보컬
##르크
처방
빌려
존재감
장병
캠핑
밀리
익숙
링크
수장
돼서
철수
제조사
##88
대세
정면
다저스
##타인
존경
상황실
네요
비치
급감
넘겼
직면
베어스
노원
발부
##개발
진지
취향
뛰어넘
임용
아무리
한국어
좌석
방영
삭감
스터
##ro
태극
일선
에요
억울
##시험
특가
앞당
반환
코어
고의
일반인
제압
105
dj
표했
##로운
ot
레스토
레스토랑
법상
일종
##ecd
##art
1990
벌어졌
상실
판타
비주얼
용지
검사장
과징금
교보
금전
2001
자이언
오랫
단백
##엑스
oecd
##일랜드
350
저널
지켰
##에이
단양
##협회
##안군
데이트
단원
여름철
자치구
학위
들려
보통주
일요일
##키스탄
밸리
발표회
면모
yg
관리자
거래량
갈수록
어워드
##보합
되찾
조율
농어촌
머물렀
유니폼
imf
캐주얼
오를
창구
##으로
검장
우편
성매매
흔들리
밀접
막대
대국민
원리
히어로즈
pl
호재
covid
출생
일치
##밀리
한우
소식통
동서
심지어
그럴
수년
챙겨
##간다
법인세
관악
석탄
안겼
##바겐
ls
조속히
폭스바겐
##수도
반기
미쳤
오랫동안
모의
ad
성희
오류
##말로
취해
도달
위즈
오버
브라운
당은
시립
꺼내
##운서
인접
수산물
아나운서
노동당
투구
베네
오디션
속초
봉쇄
원피스
각별
걸렸
음반
지낸
##스틱
대면
쾌적
모양새
조종
우울
미뤄
자릿수
아라
브로
섹시
밀려
정서
사찰
게다가
고속도
하트
##기금
로비
배임
상세
월화드라마
귀여
체류
다스
생애
낙찰
배구
##11
탈모
통신부
수송
피로
합계
지리
##일보
셰프
파생
그래픽
입구
수거
제약사
사면
cb
그레이
성희롱
tr
오빠
들어서
효성
국고
방문객
발라
미친
벤츠
고전
2025
지냈
전격
ir
증설
펼칠
##게임
필터
집합
컨트롤
내각
단가
밀착
주유
##외선
로직
어려웠
##라도
호가
선관위
선대
필름
##igh
##32
##셀러
초등학생
급격히
교도
메달
운수
페어
##테이너
떠오르
##44
휴양
##연히
경유
프레스
향하
무력
파라
감자
독려
안타깝
mv
불량
통행
be
전설
할리
세운
미지
com
반등
고생
중진
포수
위조
##플레이션
유격수
사라지
정성
##진구
소액
놓치
해지
잉글랜드
##근무
적폐
단백질
미스트
오랜만
브루
전속
됐으나
정한
##유산
일괄
크다
상당수
공매도
메리
살아가
실사
트윈스
##ity
##데스
리버
보드
푸틴
공문
텍스
매트
특구
통계청
흡연
방송인
##12
고기압
조각
스리
##서울
상고
채워
지원자
탁월
어업
판문
수료
아모레
ktx
다면서
열풍
제작사
광역시
##ae
헌신
정산
합쳐
##블리
앤드
라이온
삼성증권
기업인
비행기
통하
저작권자
확립
교차
상습
줄일
모금
con
점심
생생
##17
옥천
##15
##공단
리우
군청
발판
우호
보합
발병
한양
##99
##레나
미정
바디
나중
전적
간호사
착한
연초
날짜
##bi
절실
채취
##조사
항암
상사
건설사
차종
##바이트
##48
산출
수호
cgv
if
##수산부
공로
서비스업
널리
싸우
대여
시일
자매
거둔
##재단
1980
정통부
플라이
외출
벌인
경관
스프링
빌라
소문
장기간
상식
넘어가
멈추
다룬
해양수산부
##오스
##33
눈치
명소
co
돌리
브레이
커질
넘어서
해운대
샌드
##노스
시진
신발
집안
##듀서
프로듀서
환급
##ga
판문점
kd
무주
우드
##ine
제치
학자
판로
##글스
저항
해진다
진료소
갑작스
누릴
손쉽
외면
##므로
과반
면밀
확고
톡톡
염두
안다
##위원장
fom
부위원장
후문
##비드
색깔
단식
꾸며
이론
이게
발산
국무부
ph
고려대
170
프렌
벤치
존슨
성형
##로이드
버튼
190
마침
##and
금강
평창동
##세포
남긴
##lo
이룬
파우
생길
225
fomc
일어난
워너
생겨
즐거움
##75
##천구
대하
사직
도구
회복세
대표단
##저트
##타르
평범
축적
아메리카
출원
어치
본질
지상파
일명
판교
들어선
임의
수목드라마
상주
##49
우크라
영리
##19
시진핑
출간
가결
##리안
신도
야생
연평균
침몰
강수량
유쾌
자부
학력
침묵
답답
bn
검역
교정
컨테이너
서대문
##준다
즐거운
한중
108
급속
과천
간판
대원
전염
가깝
##ba
끊임없이
일체
해산
사령관
기쁨
치명
기부금
에디션
리콜
원단
한은
색다른
전경
위대
##라이트
공산
공연장
구독
전주시
재현
##25
디저트
모인
증후
시연
발레
균형발전
게이
풍경
저지른
그라운드
##티나
기법
강북
개학
나요
어른
표면
신재
인류
new
워킹
##습기
미국인
##아웃
정작
##oa
회사채
직구
전교
전작
즐겁
스트라이
동화
건설업
부의장
2023
se
내줬
대리점
산다
이른다
약화
견해
ma
대륙
기성
헬로
펼친다
미용
wti
재심
든든
신생
박수
증후군
양도
영세
공론
코엑스
##65
##ci
계약서
##놀이
군부
합산
고스
수출입
##질랜드
뉴질랜드
##서리
뜨겁
유재석
녹음
lc
추행
격상
여서
주총
딸기
밸류
느냐는
근처
오름세
모른다
배수
좌우
기장
건너
##31
운동장
폐렴
휴직
들어갈
플랜트
##몬드
##으니
과실
입대
##34
360
연체
라임
공작
열기
프레임
위장
몬스터
고등학생
나타날
자정
클리
애초
스어
밝혀졌
##36
cu
잠수
양극
자립
성금
아이콘
미수
보여준다
증여
교역
로고
팽팽
커뮤니케이션
1300
##니지
콜라보
모이
퇴근
피싱
금요일
유성
폭넓
산책
육박
구미
다운로드
의제
수신
잔액
##bm
징수
진학
신흥
로직스
관절
도당
##어도
재편
##배우
양육
의석
keb
탄도
민관
축사
##매김
자리매김
##77
본점
아스트라
변론
행안
스펙
115
침대
패밀리
펼쳐진다
당해
신속히
소유자
125
##hd
하도
온실
욕심
컨디션
대권
esg
인과
##수원
교섭단체
변하
엑스포
구나
선원
마진
생성
and
go
본관
이뤄지고
첫째
보편
멋진
cf
빌보드
냐고
##ess
강경
1999
거세
고르
대치
미모
##제표
공채
출제
##미터
순서
맛집
재무제표
침수
성숙
출고
스타디
버거
스캔
##나마
분량
국어
이득
고요
##평군
고양이
몸매
마라
##려야
초콜
##47
차입
모발
폼페이
빨간
난다
남해
보호법
드립니다
명분
교황
상표
##38
과열
코레
포부
워낙
정부서울
정부서울청사
시당
소명
아일랜드
회전
디즈
##연구
으니까
상보
유선
성장률
베이비
포용
##처럼
병상
될까
우정
이렇
mw
세입
우세
효력
스타디움
##37
mlb
너무나
##16
출루
디젤
벨트
소원
참모
챔피언십
피트
##월드
겨울철
회의소
사명
최장
구급
ecb
가벼운
일으킨
낙폭
해역
찬스
빛나
융자
탐방
텐데
##투스
##마블
넷마블
즐겨
부적절
도우
앞바다
싸이
실증
##18
##테랑
에릭
매수세
인형
이뤄지는
하남
숙소
추이
펼쳐지
다이아
일찍
골프장
동국
화력
109
심정
범인
부통령
당첨자
밀어
프로세스
잠재력
인디
##블릿
디테일
이념
인체
포즈
납입
상선
블랙리스트
총기
베테랑
태세
106
##46
##뜨리
타인
li
양보
##스키
리바
내보
대타
##플러스
도주
##지노
걸친
부끄
키움증권
건국
임시회
하고
제철
##전지
##신저
나쁘
두드러
할리우드
민사
아리
이용객
기도
권위
실감
누르
이산
오른쪽
##봐야
3500
챙긴
1998
트로트
침입
fda
자식
드러난
파이낸
장마
국지
파고
저질
임상시험
공업
##멘트
초콜릿
##병원
진천
연임
경연
##실험
니트
동상
로버
실리콘
##공항
영남
구인
실전
##러스터
중형
107
가려
훈훈
클러스터
나흘
뱅킹
소모
시카
공표
작사
##삼성
그걸
여력
시위대
혹시
채우
kcc
익산
안전사고
hd
1600
사자
괴롭
##욕장
##iew
산림청
태블릿
승계
fif
##85
당진
카운트
영원
명확히
용산구
대유
슬로건
사이클
예배
르노삼성
롯데마트
bts
cl
채소
##제철
##안전
대목
한방
외치
넘겨진
##42
독감
인먼
보령
##영향
자재
울릉
번역
##임스
데려
여행객
강력히
수질
고위급
래퍼
일간
매칭
카리스
출력
공청
근접
연쇄
일지
맞물
soc
주시
관련자
충주시
기름
##th
미드
핵실험
여고
전사
액세
지방세
증폭
다행히
익스
등기
실명
송도
매뉴
시킨다
기저
메신저
##스카
만성
ds
pb
##아냈
도로공사
전임
주춤
관광공사
섬세
##여행
데일리
카타르
이글스
fifa
걸린
테크노
카리스마
##걸이
올릴
푸른
보석
에게서
전송
질주
에피
##기에
정수
불거진
대림
승소
바르셀
바르셀로나
숨겨
들어온
해설
##22
ps
예요
무제
대입
보낼
니스
단호
매뉴얼
통영
외화
포천
##무실
획기
도덕
하천
호수
감탄
전경련
택지
me
빨라
게시판
서브
몰래
제임스
유전
걸려
영등포구
by
##28
에버
품안
재택
1997
캐시
익명
인지도
군대
수제
##허가
공정거래
공정거래위
클릭
마이클
뛰어나
서귀
##41
쏠리
스피드
가끔
논쟁
선점
##거진
임하
미르
우회
강진
싱크
정했
클로
법무법인
반납
역세
화사
##co
벨기에
홈플러스
달라진
걸어
슈즈
행운
##기구
##ep
퇴원
인텔
멘토링
아이스크
아이스크림
이어져
얼리
인제
가파
만찬
고사
드라이브
##og
시책
석방
리츠
양형
##ab
월요일
물러나
##다드
##처분
추위
취업자
통지
제주항공
가산
비춰
소진
특별히
##95
##24
부시장
##스틴
완도
봉사자
관건
기탁
세션
서귀포
웃돌
후임
여겨
수요자
##평구
이스트
##영장
휴일
행사장
동아리
신청자
승무원
후원금
중소형
수시로
개표
지지층
개막전
냉동
가습기
##소드
공청회
취할
mar
##13
##도어
공격수
##사태
기생
보스
##내셔널
자존
dna
인터내셔널
조업
거든
스킬
em
고속도로
국제공항
자라
라스
고무
##66
결의안
심한
삼성그룹
촉촉
고스란히
스케줄
휘발
사법부
쓰이
봐도
배후
승차
양양
영감
타이거즈
불신
조류
개원
아르헨
##센트
감추
시속
자이언츠
아르헨티나
이색
##43
hm
변함
아쉬운
220
주권
타깃
교장
##27
주식회사
##ice
보습
종결
하회
강서구
출구
판타지
세액
ns
어서다
심해
열려
수감
독재
os
강당
검정
##저우
하차
스트리
월급
kc
##높이
남양주
맞대결
휴업
간식
마땅
##all
청정기
라이온즈
공화국
적금
128
aw
멤버십
인플
인스
베르
넥스
산재
장례식
우체
강구
성북
##기술
바쁜
결선
보류
부드럽
부담금
최저치
얼음
미스
들어왔
##일드
고품
##광역
cs
추측
##사이
마비
멀리
상거래
소홀
##오피스
##번스
거제
연전
곤란
맞췄
예의
일평균
신용카드
1100
감수
베리
박스오피스
머무
정시
한식
금연
상의
마드
셀프
동북아
만점
##디스
온실가스
극심
주유소
며칠
단절
학사
top
오렌
my
구민
바꿀
흐르
도봉
고심
변동성
##치소
uae
소주
디즈니
독보
파트너십
뽐내
mvp
이건
전신
걸릴
ha
쏠린다
자외선
대전시
펀딩
도망
빠져나
실물
결함
플레이어
따져
고장
매거진
##이도
관제
개그맨
니즈
포지
큐브
실버
마블
오사
장외
쏟아지
##티지
줄기
용인시
스톱
##72
양질
남동
주위
인플레이션
관심사
들여다
라운
ok
주파
sdi
##아지
못한다
##세종
럭셔
럭셔리
소멸
bb
기하
##노이
예결
포드
용어
보답
와이번스
카지노
사양
지문
월간
##트라
영구
의자
통신망
두루
배틀
##니스트
학계
신사업
원산
택트
스피커
##래프트
##14
인권위
##26
다큐
1400
육상
넘어선
강호
재판관
유나이
구원
오렌지
경쟁사
에피소드
치안
엔지니어링
유로존
태그
드루
입술
바이어
천재
푸르
유나이티
흔적
##둥이
액세서리
장인
결성
##호텔
릴레이
리니지
충당
표본
드래곤
효능
##fc
골라
트롯
파인
주고
bl
참고인
시황
ab
폭락
당선자
별개
아랍
원회
로맨틱
파손
##ers
만전
향수
옮기
아웃도어
환상
가처분
##ang
퇴임
나름
개막식
일축
주전
##23
빌리
치과
넘겨졌
부재
평일
가축
멜로
##투자
알아보
모욕
##어지
지혜
저조
손가락
정유
실린
계란
전한
달러화
사채
##사관
트레이드
자수
##존스
김정
##68
기술원
투약
몰렸
올리브
터지
고척
##어진
인종
혼합
시비
##55
계파
##61
윌리
으므로
였으며
그날
신주
##출산
누나
향했
정답
##시마
대박
car
진압
##네마
도매
차분
세탁기
탐지
하수
꾸려
한창
번영
상큼
모은다
지청
##경기
##고속도로
신원
작곡가
지주회사
4500
둘러싸
외곽
신사
부도
치른
##ove
귀여운
##클럽
태극기
임대차
전동
한파
nyt
굳이
외국어
아르바이트
성동
소방관
다우존스
기독
여행사
하도급
부결
일당
여대
벌여
입단
위하
불복
케이크
접어들
##관계
##다니
힘쓰
공예
정관
경호
농성
복용
휴게소
버린
유한
##ke
시카고
스코어
비록
특사
크로
##71
흐리
업무상
고용부
ac
정선
방산
공수
기울여
반장
##76
피스
주고받
열악
##카르
##스트리트
만만
명동
오찬
한다며
노르
광범
##78
##79
##저히
운반
심하
청량
다름
na
cnbc
당국자
월스트리트
김종
무서
태백
지주사
##의사
회로
파산
김장
은폐
씨티
리뉴
나눈
카라
간소
부추
계획서
금지법
구두
레시
##21
진이
gt
불렀
후회
일회
떨어질
배당금
등극
##29
##pp
원조
눈높이
리터
입맛
반군
##지원
수법
##86
##일으
불러일으
언제나
소각
주역
##포터
베를
테크놀
테라
1800
백종
학업
여가
##키퍼
안착
골키퍼
태권
늘렸
취한
합법
##64
사령부
성별
올스타
직영
신조
몽골
광범위
##73
쇼트
##다임
패러다임
we
고위험
적어도
뛰어들
헤지
심문
##체육
다지
지소
환불
결승전
등록금
소관
언론사
주니어
스페이스
소극
들어간다
낸다
전술
아픈
카테
사위
찬반
##마디
불어넣
전복
트로피
반문
어벤
저출산
kdb
교도소
##둘러
##ack
240
알레
bbc
돌풍
이성
쇄신
제네시스
사죄
기세
세인트
밝힐
비스
카이
낮춰
##63
대용
석사
감소세
줄였
##부르크
알림
순방
사냥
실체
##96
풀어
표지
가담
경감
투여
총격
해커
단단
대리인
볼거리
유보
수사관
가죽
소나
안드로이드
##83
납세
비싼
국영
증명서
장시간
관계없이
##케미
셋째
조짐
##62
조사단
바꾼
풍력
ost
방송사
살짝
달라지
메일
##러드
설레
부연
전시관
주점
간격
완주
이끈
화성시
비결
임박
트랜
국회법
등락
##케미칼
크라
차등
검체
md
##란시스
브로드
플로리
##축구
기본소득
토요
본연
연수원
##페라
으라
##병대
##커트
고흥
불꽃
저금리
##82
대우건설
코믹
폐업
놀랐
생리
트리플
인선
##67
레전
정세
우량
##92
##98
기숙
모던
펼친
등산
아레나
뮤지션
현수
위크
지갑
환수
자산관리
법학
장단
원한다
스트리밍
연중
##긴다
450
##예산
끌려
내세우
체육회
등재
135
스파이
##무기
입금
우체국
사업단
한시
독립운동
내장
납치
신기
활기
상관없이
이별
벌금형
송구
행정관
좋아하
오케
부양책
기적
렌즈
가칭
##91
해수욕장
전교조
유착
책임감
##공개
순찰
후반기
표기
id
미주
양당
불황
근황
총생
낙관
동성
파장
토스
소아
##톡스
일어났
##가리
경사
배급
획정
담장
원자재
메이커
공존
느라
sa
장터
##ue
다이노스
후쿠
치른다
빅뱅
악용
피크
최후
##94
미네
더라고
트렌디
대내
주어진다
명성
버티
실종자
대수
입체
온스
아우디
성명서
베를린
국외
중앙지
때리
수량
##일러
미아
디바
리포트
##루엔
처한
##97
de
총생산
믿음
해남
좌익수
체질
##르기
가까워
부상자
##찰청
되게
구직
남아
대검찰청
초미
파이낸셜
##레이터
마산
up
성원
강풍
해변
연소
실책
의결권
피아노
박모
오사카
남원
공범
##티스
살균제
##ight
렌터
렌터카
경정
감당
회상
기해
한가
다를
윌리엄
휘발유
##어났
정화
심포
장미
올라섰
노트북
te
기다려
주파수
후기
##oo
완치
##엘라
꼽혔
유기농
경진
철원
매직
알코
매립
스틱
에르
다크
나이트
##광역시
잔류
##베이터
##번에
##87
접한
##84
금고
##관리위원회
선거관리위원회
단점
욕설
파주시
원안
레전드
밀러
다변
구직자
나인
사범
윈도
대교
##74
##가운
싱어
위임
증서
이집
애국
이집트
##89
미생
제동
교재
교통안전
시동
안무
끌어올리
wto
팬데
365
ev
한라
장성
he
##69
어벤져
낭비
운세
##81
국군
##퇴근
gr
지장
소니
병력
조별
1995
영동군
##면적
원서
건네
예쁘
포켓
패소
폴란드
lcd
과다
카테고리
pe
나들
불법행위
백종원
사이드
토론토
중학생
내비쳤
나들목
플로리다
##유럽
인성
남대
opec
기생충
동탄
분포
용이
서식
##보험
형평
유가증권
고액
슬라이
##아리
롯데월드
체중
간절
집무실
중화
##외과
어벤져스
##로지
불출마
접전
수요일
내정자
달렸
##금속
연비
혐오
피할
해결책
버렸
입주자
레시피
한마디
##정지
퍼스트
편한
오케스트라
팩토리
눈앞
스러워
##연맹
목재
무너지
품종
집중력
채팅
고부
주부
one
ne
##iz
내려가
증강
드렸
아냐
초고
재택근무
기점
우익수
이걸
사라진
##방울
창원시
중견수
사거리
##테이션
노스
##루엔자
인플루엔자
관료
##이팅
##란시스코
만장
거든요
영화관
어두
주축
##네스
1994
안산시
현충
순회
프렌즈
흘리
그나마
오페라
트라
마포
전대
고고
적법
기념관
의대
취했
합당
##바바
vip
영등포
dmz
화해
막말
미루
pmi
반해
구치소
비위
출퇴근
각계
시공사
어떨
참전
문화유산
le
종식
구해
재임
초선
잔여
발족
선명
##렉트
심플
질타
속한
열연
스캔들
전투기
머신
데님
농축
환호
거주자
지났
이스타
돌아섰
발동
목동
치를
##93
##수엘라
##에이터
병사
열람
던진
역동
pp
무형
저해
##아버지
아이즈
우산
여배우
베네수엘라
렌탈
산소
노란
##걸음
에듀
클렌
루이스
양심
소회
타구
그대
오디오
반격
스탠다드
선호도
개회
숨기
접하
무더위
내려놓
결과물
ro
##ta
유네
##센스
##ace
로켓
역설
알선
페르
기관장
알코올
달린
넘긴
##자원
230
시멘트
사이언스
취임식
기득
##해져
플라자
미스터리
##아라비아
넓히
원더
수비수
학점
사우디아라비아
사용자
관리법
마드리드
놀라운
1988
던져
면밀히
한복
불발
홍대
박탈
동반자
유네스코
fm
연료전지
문화재청
오스트
떠올리
스테이트
화두
챙겼
ces
라서
##51
입당
##스탄
유독
분권
비닐
ebs
활발히
오너
퓨처
부리
레이저
일으켰
오락
에디
내걸
직위
닐슨
들어와
몰입
펜스
##비치
예쁜
호기심
##워하
lpga
고추
조문
그저
액수
장군
엔트리
kor
미성
##버리지
정점
분식
바비
대강
동반성
##제당
밑돌
민중
함정
동문
인조
영농
전단
제일제당
워즈
야기
이를
높인
음란
라운지
만난다
사들
테니스
백지
알리바바
기량
그루
##휴일
love
하노이
리듬
화순
경제학
무드
##52
센스
까다
맞붙
단과
삼척
규격
로즈
성수기
서산
##연대
세수
대유행
미달
주름
hs
예술가
살아남
길이
브이
촉발
iptv
특급
##ate
테크놀로지
탱크
po
이뤄져야
수익금
서장
네오
걸맞
104
uhd
분해
납득
조선업
기어
늘릴
기본법
체인지
공관
##53
cd
못지
끊이
시켜야
주무
직속
출격
중시
cbs
분배
##암동
리바운드
문항
오직
리뷰
시사회
초록
내게
소신
보은
103
아우르
ci
최강
현대제철
찾아온
동지
다이아몬드
고충
##56
청담
각지
알렉
##one
떨어진다
이온
사주
은메달
옥천군
##ox
보호자
frb
입수
동메달
##ech
##세요
풍미
시내버스
##밴드
연면적
덴마크
유류
실세
##전기
##예술
아크
단기간
앞섰
이브
결실
미미
따지
수협
약관
마일
기피
친분
빼돌
거듭나
연구자
##만금
지스타
안경
사생활
##ure
공휴일
맡기
각광
수성
레스
이겼
부응
##연수원
##철도
연차
조이
불명
느다
올라왔
사법연수원
바지
##싸움
##감치
##찌감치
##운다
1970
유닛
체크카드
사라졌
식감
1996
da
대역
선체
210
인양
공습
모티브
창단
##pa
떠올랐
농지
